CF9724616D651079DE
28D12A3FDFBC7EF3B9
F235C3F64C63A67113
D87A3032D43CE115E1
DDE4C64CF96B14B6E4
4D7B4755C3DDCFBCF5
F1FA2C6108F1F6BBB0
5F25DA35502F33E121
B3622CD56E32D6BE44
C5075314020F06A1CA
E09408F12221D26220
2F653CC3B51CAF3DF6
25B8926DB1460DF275
F5EB03F2CBE4017744
62E2405AF91AED9119
3B60C40FF266C0503F
C3338E6735AE7F48C3
142F5827EC5FC9C221
642855AE20069F31D3
5317394F670BAA3FA0
224A6BBC22C80A6ACF
D9F1965A4BDF2DE532
26D60236DD9E30F624
B6505C4E5B60FD1304
38F13BB519D85B3F1A
E5D2093075B17A1CF9
F470FE0BD4CABFDF0F
10FC92579E1EFB1524
D9BEB42B2CD3045CF5
D5D272AC481FB008E7
8C1719513EFF341AFA
D957DB51ECB97AD307
